0000000010110110
0000000001000011
0000000010001100
0000000001110110
0000000100110010
1111111111100011
0000000001111101
1111111100110111
0000000011110010
0000000101101000
0000000001100001
0000000001101110
0000000001011001
0000000000001100
0000000100010110
0000000011101101
0000000010110001
0000000010100000
1111111110110100
1111111110001100
1111111111000110
0000000011000001
0000000001000000
0000000100010010
0000000010010110
1111111100100010
1111111001011010
1111111101011110
1111111000001011
1111111011010110
1111111110111010
0000000000001011
1111111010111011
1111111011010000
1111111001010010
0000000010110011
1111111110011011
1111111111000011
1111111111011111
1111111010001001
0000000101101001
0000000101011010
1111111101011100
1111111101000011
1111111110000110
0000000111011010
0000001001100111
0000000011100011
0000000010110011
0000000101011100
1111111110101011
0000000111011010
0000001000001011
0000000101010000
0000000100001100
0000000001101001
0000000000010010
1111111010011001
1111110111110011
1111111110010111
0000000000011010
1111111111001101
1111111010100111
1111110111100000
1111111111010100
0000000001101010
1111111100100001
1111111010010100
1111111000010001
1111111111100011
0000000000101100
1111111100101100
0000000000110111
0000000011101100
0000000100011101
1111111100100011
1111111101011011
1111111100010000
1111111110000100
1111111011001001
0000000001100110
0000000100000011
0000000000110011
0000000000111000
0000000100000010
1111111101100000
0000000000101111
0000000100111100
0000000110101011
0000000000001010
1111111001011000
0000000000101101
0000000110001010
0000000101000001
0000000001010111
1111111111010100
0000000000001110
0000000101001111
0000000100110011
1111111100001100
0000000010001101
0000000001110010
1111111001111000
1111111111101010
0000000100000110
0000000001111001
0000000000010000
1111110101011000
1111111000111011
0000000011010001
1111111111111111
1111111100011001
1111111000000001
1111111011010111
0000000100110011
0000000011010010
1111111001111110
1111111011101000
1111111101010101
0000000001010000
1111111000111111
1111111101010011
1111111111110101
0000000010010110
0000000001100110
1111111111001110
0000000000010111
0000000001010011
1111111111110100
1111111101000101
1111111111011110
1111111100110111
0000000001001011
1111111100010110
1111111110110011
1111111110110000
0000000010111001
0000000111010000
1111111111000100
1111111111011011
0000000001010010
0000000100001011
0000000011001101
0000000100000010
0000000001100101
0000000001101000
0000000110100000
0000000001111111
1111111111100001
1111111110110010
1111111100000101
1111111100111110
0000000010101011
0000000100011100
0000000010110010
1111111011101001
1111111010101101
1111110100110101
1111110111110110
0000000000100101
1111111111010101
1111111000101100
1111110011011110
1111111000010111
1111111110101000
1111111110110100
1111111111011001
1111111010011011
1111110111111100
1111111011000101
0000000111110010
0000000010100001
0000000001001100
1111111101101001
0000000001011111
1111111110001001
0000000100000010
0000000010101010
0000000010000000
1111111111100000
1111111001110001
1111111011111001
1111111110010000
1111111110110101
1111111011111100
1111111110110010
1111111110111111
1111111010001100
1111111110001010
0000000000110010
1111111110100101
1111111100011011
1111111101111011
0000000001110001
1111111101011101
0000000001110000
0000000010000000
1111111110011111
1111111111111101
1111111111000011
0000000000000111
0000000000011001
1111111110001001
1111111010011010
1111111110101100
0000000101010100
0000000100111001
0000000100001001
0000000100111000
1111111100001010
0000000011101000
0000000011100110
0000000111001001
0000000010110101
1111111101010100
0000000000100000
1111111111110011
0000000010100111
1111111100010110
0000000011101000
1111111111000101
1111111111011001
0000000010111111
0000000010101000
1111111110000110
